<bug id='1251' author='SophieChang66' open_date='2019-09-11T02:55:57Z' closed_time='2019-11-02T09:45:54Z'>
	<summary>层名为“335” 类似的时候， ncnn2int8.cpp里解析table文件有bug</summary>
	<description>
某个table文件如下
...
512_param_0 851.168762 609.982239 935.410034 673.293945 836.306213 671.169739
334 114.038055
...
按照ncnn2int8.cpp里read_int8scale_table()函数的解析方式，层名334以及后面的scale 114.038055都将被解析为weight的scale，而”334”层不存在了。
原始解析代码如下：
int nscan = sscanf(key, "%f", &amp;scale);
if (nscan == 1)
{
scales.push_back(scale);
continue;
}
建议将这个函数改为如下：
//add by Sophie in 2019-09-11
static bool read_int8scale_table_cplusplus(const char* filepath, std::map&lt;std::string, std::vector &gt;&amp; blob_int8scale_table, std::map&lt;std::string, std::vector &gt;&amp; weight_int8scale_table){
blob_int8scale_table.clear();
weight_int8scale_table.clear();
std::string table_file = filepath;
std::ifstream input(table_file);
if(!input.is_open()){
std::cout &lt;&lt; "open " &lt;&lt; filepath &lt;&lt; " failed" &lt;&lt; std::endl;
return false;
}
while(!input.eof()){
std::string keystr;
std::vector scales;
keystr.clear();
scales.clear();
std::string line;
std::getline(input, line);
std::vectorstd::string content;
content.clear();
if(!line.empty()){
std::stringstream ss(line);
std::string sub_line;
while(ss &gt;&gt; sub_line){
content.emplace_back(sub_line);
}
if(content.size() &gt; 1){
keystr = content[0];
for(int i = 1; i &lt; content.size(); i++){
scales.emplace_back(std::atof(content[i].data()));
}
if (strstr(keystr.c_str(), "param"))
{
weight_int8scale_table[ keystr ] = scales;
}
else
{
blob_int8scale_table[ keystr ] = scales;
}
}
}
&lt;denchmark-code&gt;}
return true;
&lt;/denchmark-code&gt;

}
看过ncnn2table.cpp文件，每层写结束都有换行符的。
	</description>
	<comments>
		<comment id='1' author='SophieChang66' date='2019-11-02T09:45:53Z'>
		fixed in &lt;denchmark-link:https://github.com/Tencent/ncnn/pull/1341&gt;#1341&lt;/denchmark-link&gt;

		</comment>
	</comments>
</bug>